unsigned char copd_models_copd_model_tflite[] = {
  0x1c, 0x00, 0x00, 0x00, 0x54, 0x46, 0x4c, 0x33, 0x14, 0x00, 0x20, 0x00,
  0x1c, 0x00, 0x18, 0x00, 0x14, 0x00, 0x10, 0x00, 0x0c, 0x00, 0x00, 0x00,
  0x08, 0x00, 0x04, 0x00, 0x14, 0x00, 0x00, 0x00, 0x1c, 0x00, 0x00, 0x00,
  0x98, 0x00, 0x00, 0x00, 0xf0, 0x00, 0x00, 0x00, 0x9c, 0x06, 0x00, 0x00,
  0xac, 0x06, 0x00, 0x00, 0x60, 0x0c, 0x00, 0x00, 0x03, 0x00, 0x00, 0x00,
  0x01, 0x00, 0x00, 0x00, 0x10, 0x00, 0x00, 0x00, 0x00, 0x00, 0x0a, 0x00,
  0x10, 0x00, 0x0c, 0x00, 0x08, 0x00, 0x04, 0x00, 0x0a, 0x00, 0x00, 0x00,
  0x0c, 0x00, 0x00, 0x00, 0x1c, 0x00, 0x00, 0x00, 0x3c, 0x00, 0x00, 0x00,
  0x0f, 0x00, 0x00, 0x00, 0x73, 0x65, 0x72, 0x76, 0x69, 0x6e, 0x67, 0x5f,
  0x64, 0x65, 0x66, 0x61, 0x75, 0x6c, 0x74, 0x00, 0x01, 0x00, 0x00, 0x00,
  0x04, 0x00, 0x00, 0x00, 0x90, 0xff, 0xff, 0xff, 0x0a, 0x00, 0x00, 0x00,
  0x04, 0x00, 0x00, 0x00, 0x08, 0x00, 0x00, 0x00, 0x6f, 0x75, 0x74, 0x70,
  0x75, 0x74, 0x5f, 0x30, 0x00, 0x00, 0x00, 0x00, 0x01, 0x00, 0x00, 0x00,
  0x04, 0x00, 0x00, 0x00, 0x4a, 0xf9, 0xff, 0xff, 0x04, 0x00, 0x00, 0x00,
  0x0e, 0x00, 0x00, 0x00, 0x6b, 0x65, 0x72, 0x61, 0x73, 0x5f, 0x74, 0x65,
  0x6e, 0x73, 0x6f, 0x72, 0x5f, 0x37, 0x00, 0x00, 0x02, 0x00, 0x00, 0x00,
  0x34, 0x00, 0x00, 0x00, 0x04, 0x00, 0x00, 0x00, 0xdc, 0xff, 0xff, 0xff,
  0x0d, 0x00, 0x00, 0x00, 0x04, 0x00, 0x00, 0x00, 0x13, 0x00, 0x00, 0x00,
  0x43, 0x4f, 0x4e, 0x56, 0x45, 0x52, 0x53, 0x49, 0x4f, 0x4e, 0x5f, 0x4d,
  0x45, 0x54, 0x41, 0x44, 0x41, 0x54, 0x41, 0x00, 0x08, 0x00, 0x0c, 0x00,
  0x08, 0x00, 0x04, 0x00, 0x08, 0x00, 0x00, 0x00, 0x0c, 0x00, 0x00, 0x00,
  0x04, 0x00, 0x00, 0x00, 0x13, 0x00, 0x00, 0x00, 0x6d, 0x69, 0x6e, 0x5f,
  0x72, 0x75, 0x6e, 0x74, 0x69, 0x6d, 0x65, 0x5f, 0x76, 0x65, 0x72, 0x73,
  0x69, 0x6f, 0x6e, 0x00, 0x0e, 0x00, 0x00, 0x00, 0xa8, 0x05, 0x00, 0x00,
  0xa0, 0x05, 0x00, 0x00, 0x30, 0x05, 0x00, 0x00, 0x20, 0x03, 0x00, 0x00,
  0x04, 0x03, 0x00, 0x00, 0xd4, 0x02, 0x00, 0x00, 0x84, 0x02, 0x00, 0x00,
  0xb4, 0x00, 0x00, 0x00, 0xac, 0x00, 0x00, 0x00, 0xa4, 0x00, 0x00, 0x00,
  0x9c, 0x00, 0x00, 0x00, 0x94, 0x00, 0x00, 0x00, 0x74, 0x00, 0x00, 0x00,
  0x04, 0x00, 0x00, 0x00, 0xfe, 0xf9, 0xff, 0xff, 0x04, 0x00, 0x00, 0x00,
  0x60, 0x00, 0x00, 0x00, 0x0c, 0x00, 0x00, 0x00, 0x08, 0x00, 0x0e, 0x00,
  0x08, 0x00, 0x04, 0x00, 0x08, 0x00, 0x00, 0x00, 0x10, 0x00, 0x00, 0x00,
  0x28, 0x00, 0x00, 0x00, 0x00, 0x00, 0x06, 0x00, 0x08, 0x00, 0x04, 0x00,
  0x06, 0x00, 0x00, 0x00, 0x04, 0x00, 0x00, 0x00, 0x01, 0x00, 0x00, 0x00,
  0xea, 0x03, 0x00, 0x00, 0x0c, 0x00, 0x18, 0x00, 0x14, 0x00, 0x10, 0x00,
  0x0c, 0x00, 0x04, 0x00, 0x0c, 0x00, 0x00, 0x00, 0xf3, 0xdf, 0xe2, 0xab,
  0xd8, 0x3c, 0xfa, 0xd8, 0x02, 0x00, 0x00, 0x00, 0x02, 0x00, 0x00, 0x00,
  0x04, 0x00, 0x00, 0x00, 0x06, 0x00, 0x00, 0x00, 0x32, 0x2e, 0x31, 0x39,
  0x2e, 0x30, 0x00, 0x00, 0x6a, 0xfa, 0xff, 0xff, 0x04, 0x00, 0x00, 0x00,
  0x10, 0x00, 0x00, 0x00, 0x31, 0x2e, 0x35, 0x2e, 0x30, 0x00, 0x00, 0x00,
  0x00, 0x00, 0x00, 0x00, 0x00, 0x00, 0x00, 0x00, 0x84, 0xf5, 0xff, 0xff,
  0x88, 0xf5, 0xff, 0xff, 0x8c, 0xf5, 0xff, 0xff, 0x90, 0xf5, 0xff, 0xff,
  0x96, 0xfa, 0xff, 0xff, 0x04, 0x00, 0x00, 0x00, 0xc0, 0x01, 0x00, 0x00,
  0xae, 0xcd, 0xd6, 0xbe, 0x75, 0xa8, 0x9e, 0x3e, 0x19, 0x5b, 0x1a, 0xbe,
  0x90, 0x76, 0xe4, 0x3e, 0xc4, 0xa5, 0x8e, 0x3e, 0xd2, 0xa1, 0xf4, 0xbc,
  0x41, 0x44, 0x6d, 0x3c, 0x40, 0x28, 0x44, 0x3f, 0x89, 0xeb, 0xe7, 0xbe,
  0xb9, 0x9a, 0x3d, 0x3f, 0x2f, 0x0b, 0xb5, 0xbe, 0x55, 0x34, 0x7d, 0xbe,
  0x4c, 0xcf, 0xe8, 0x3e, 0x57, 0x8f, 0xe6, 0x3e, 0x84, 0x0f, 0x15, 0x3e,
  0x6b, 0xfa, 0x90, 0x3d, 0x51, 0x92, 0x40, 0x3e, 0x09, 0x6d, 0x17, 0x3e,
  0xab, 0xed, 0xf9, 0x3b, 0x70, 0x5d, 0xd4, 0x3d, 0xdd, 0x97, 0x48, 0xbd,
  0xb7, 0xc9, 0xa6, 0xbe, 0x6c, 0x2a, 0x1a, 0xbd, 0x84, 0x25, 0x1f, 0x3e,
  0xd0, 0xc1, 0xb4, 0xbe, 0x2a, 0xa9, 0xab, 0xbe, 0x47, 0x0e, 0x2d, 0xbe,
  0xfd, 0x9e, 0x6c, 0xbd, 0x1f, 0x71, 0x6f, 0xbf, 0x75, 0x4c, 0xcb, 0xbd,
  0xc0, 0x0f, 0x86, 0xbf, 0x4d, 0xc9, 0xcb, 0x3e, 0xb7, 0x69, 0x21, 0xbe,
  0x43, 0x41, 0x58, 0xbf, 0x54, 0x2f, 0x30, 0xbe, 0x99, 0x1f, 0x67, 0xbf,
  0x9c, 0xd3, 0xe5, 0xbe, 0xf1, 0x23, 0x2e, 0xbf, 0x98, 0x06, 0x5b, 0x3f,
  0xa3, 0xaa, 0x22, 0xbe, 0x83, 0x37, 0xd6, 0xbe, 0x26, 0x63, 0x88, 0xbe,
  0x38, 0x1d, 0xdc, 0xbd, 0x20, 0xb7, 0x41, 0xbe, 0x79, 0x5c, 0x92, 0x3e,
  0x4c, 0x78, 0xa5, 0xbe, 0xbe, 0x63, 0x86, 0x3e, 0xbc, 0x0a, 0x0f, 0xbe,
  0x37, 0xa7, 0xc8, 0xbe, 0xec, 0x29, 0x0a, 0x3e, 0x1d, 0x7e, 0xc7, 0x3e,
  0x3e, 0x3e, 0x29, 0xbe, 0x3f, 0x11, 0x78, 0x3e, 0x63, 0xcc, 0xad, 0x3d,
  0x64, 0x39, 0x66, 0x3e, 0x7a, 0x9a, 0x9d, 0x3e, 0x2b, 0x06, 0x9f, 0xbe,
  0xe9, 0xe6, 0x45, 0xbe, 0x4d, 0xb5, 0xad, 0x3e, 0x8d, 0x5f, 0xfd, 0xbd,
  0x12, 0x93, 0xcb, 0x3d, 0x78, 0x66, 0x8d, 0x3d, 0x7c, 0xdb, 0xa3, 0x3c,
  0x31, 0xbf, 0x5c, 0x3f, 0x77, 0x47, 0xf9, 0x3e, 0xea, 0x8f, 0x0c, 0x3e,
  0x33, 0xc8, 0x1d, 0xbd, 0xb5, 0x64, 0x9e, 0x3e, 0x12, 0xf3, 0x12, 0xbf,
  0xda, 0x5e, 0xf7, 0xbe, 0x06, 0xfa, 0x45, 0xbf, 0xda, 0xa6, 0x65, 0xbf,
  0xdc, 0xf4, 0xa1, 0x3e, 0x77, 0x52, 0xbd, 0x3e, 0x0e, 0x5a, 0xed, 0xbe,
  0x06, 0xc7, 0x30, 0xbf, 0x06, 0xb5, 0x1f, 0xbf, 0x35, 0xe3, 0x53, 0x3f,
  0x00, 0xbc, 0xf8, 0xbe, 0xab, 0x6e, 0x44, 0x3f, 0x28, 0xb2, 0x26, 0xbe,
  0x5c, 0xfd, 0xd0, 0x3e, 0x1f, 0x80, 0x69, 0x3d, 0xf2, 0x60, 0x83, 0xbe,
  0x3a, 0x9d, 0x48, 0xbf, 0x81, 0x0f, 0x0a, 0x3f, 0xe5, 0x31, 0xd6, 0xbd,
  0x48, 0x44, 0x8b, 0x3f, 0xf5, 0x30, 0xa2, 0x3d, 0x44, 0xea, 0x90, 0xbe,
  0xf6, 0x30, 0xf0, 0x3c, 0x09, 0x5a, 0x60, 0x3f, 0x6d, 0xaa, 0xd9, 0x3e,
  0x8c, 0xa1, 0xe1, 0x3d, 0x42, 0x45, 0xc5, 0xbe, 0x54, 0x56, 0xec, 0x3e,
  0x56, 0x64, 0x69, 0x3f, 0xa2, 0xc0, 0xc1, 0x3d, 0xfe, 0x74, 0x24, 0x3f,
  0xc4, 0xb0, 0x9a, 0x3e, 0x8f, 0x4b, 0x38, 0x3f, 0x36, 0xae, 0x4a, 0xbf,
  0x88, 0xb4, 0xbb, 0x3e, 0xaf, 0x77, 0x03, 0xbe, 0xf8, 0x85, 0x86, 0x3e,
  0xd6, 0x0f, 0xb1, 0x3e, 0xf0, 0x40, 0xa1, 0xbe, 0x63, 0x31, 0xec, 0xbe,
  0xb2, 0x3f, 0x2d, 0x3d, 0x80, 0xd7, 0x6e, 0x3e, 0x49, 0xd3, 0xa3, 0x3e,
  0x21, 0xfe, 0x1d, 0x3e, 0x62, 0xfc, 0xff, 0xff, 0x04, 0x00, 0x00, 0x00,
  0x40, 0x00, 0x00, 0x00, 0x98, 0xb3, 0x22, 0x3f, 0x9e, 0x87, 0xc2, 0x3d,
  0x36, 0x51, 0x3b, 0x3f, 0xd8, 0xb1, 0x1d, 0x3f, 0x0d, 0xfa, 0xf2, 0xbe,
  0x21, 0x31, 0x26, 0xbe, 0xf9, 0xe5, 0x21, 0x3d, 0xca, 0x12, 0x34, 0x3f,
  0x59, 0x75, 0x1f, 0x3f, 0x4a, 0x94, 0x75, 0x3d, 0xe6, 0xa3, 0xbf, 0x3e,
  0x07, 0xab, 0x0e, 0xbe, 0x1a, 0xf3, 0x1f, 0x3f, 0xf3, 0xf8, 0xe7, 0xbe,
  0xe1, 0xd4, 0xb9, 0xbd, 0x07, 0x20, 0x25, 0x3f, 0xae, 0xfc, 0xff, 0xff,
  0x04, 0x00, 0x00, 0x00, 0x20, 0x00, 0x00, 0x00, 0x7f, 0x9f, 0xd1, 0x3e,
  0xf9, 0x70, 0xb9, 0x3d, 0xd1, 0xf5, 0x56, 0xbe, 0x6e, 0x69, 0x99, 0xbe,
  0xd8, 0x84, 0x85, 0x3d, 0x9e, 0xaa, 0x05, 0x3f, 0xa3, 0xde, 0x13, 0x3f,
  0xc9, 0xa6, 0xc6, 0x3e, 0xda, 0xfc, 0xff, 0xff, 0x04, 0x00, 0x00, 0x00,
  0x0c, 0x00, 0x00, 0x00, 0xd6, 0xce, 0xa6, 0x3e, 0x9e, 0xa3, 0x9a, 0xbe,
  0xb8, 0x26, 0xd9, 0xbd, 0xf2, 0xfc, 0xff, 0xff, 0x04, 0x00, 0x00, 0x00,
  0x00, 0x02, 0x00, 0x00, 0xcc, 0x82, 0xe2, 0x3e, 0xe3, 0x25, 0xa8, 0xbd,
  0xd3, 0xfc, 0x28, 0xbe, 0x7a, 0x45, 0x8f, 0x3d, 0xe9, 0xfd, 0x43, 0x3e,
  0x05, 0xbd, 0x6c, 0x3f, 0xf6, 0xf8, 0x45, 0xbe, 0x6c, 0x4e, 0x13, 0x3f,
  0xe2, 0x6a, 0xf0, 0x3e, 0x7d, 0xd2, 0x1a, 0xbe, 0xd8, 0x87, 0x4b, 0x3f,
  0x6d, 0xc3, 0x01, 0xbd, 0x15, 0x7f, 0x79, 0x3f, 0x6f, 0xb1, 0xf0, 0xbe,
  0xbe, 0x5a, 0x27, 0xbe, 0xef, 0x32, 0x86, 0xbc, 0x27, 0x80, 0x24, 0x3e,
  0xcd, 0x81, 0x21, 0x3f, 0x79, 0x91, 0x2e, 0x3f, 0xb3, 0x22, 0x5c, 0x3e,
  0x86, 0x4f, 0x9b, 0xbe, 0x2d, 0x12, 0x0c, 0x3f, 0xfb, 0x07, 0x98, 0x3d,
  0x77, 0x65, 0xd2, 0xbd, 0x6c, 0xe0, 0xbd, 0x3d, 0x63, 0xa6, 0xc5, 0x3e,
  0x1d, 0x44, 0x23, 0xbe, 0xe2, 0x4b, 0x30, 0x3d, 0xb2, 0x05, 0x11, 0xbf,
  0x37, 0x0c, 0x05, 0x3f, 0xbd, 0xab, 0xef, 0x3e, 0x51, 0xb3, 0x62, 0xbe,
  0xa8, 0x95, 0x04, 0xbf, 0x06, 0x84, 0x2b, 0x3f, 0x00, 0x07, 0xa9, 0xbe,
  0x28, 0x8d, 0x65, 0xbe, 0x1b, 0x66, 0xc7, 0xbe, 0x3e, 0xda, 0x03, 0xbf,
  0x39, 0x7c, 0x21, 0xbe, 0xa5, 0xd8, 0xac, 0x3e, 0x19, 0xe9, 0x1c, 0xbe,
  0xf2, 0xe0, 0x0a, 0x3f, 0x89, 0xda, 0x83, 0xbf, 0x1a, 0x9b, 0x4e, 0x3f,
  0xc1, 0xab, 0x1e, 0xbf, 0x5f, 0x9a, 0xef, 0x3e, 0xfc, 0x0a, 0x27, 0x3f,
  0xd3, 0x97, 0x14, 0xbb, 0xf5, 0x63, 0xc5, 0xbe, 0x2c, 0x30, 0x16, 0x3f,
  0x0f, 0xf2, 0x17, 0xbe, 0xaf, 0x3b, 0x62, 0xbe, 0x12, 0x50, 0xde, 0x3d,
  0xf0, 0x6c, 0x1a, 0xbd, 0x1b, 0xd7, 0x39, 0xbe, 0xab, 0xbc, 0x73, 0xbe,
  0xd0, 0x1a, 0x21, 0xbe, 0x82, 0xe7, 0x09, 0x3f, 0xe5, 0x07, 0x38, 0xbf,
  0xa2, 0x28, 0x02, 0x3f, 0xf1, 0xff, 0xd3, 0xbe, 0x9d, 0x45, 0x02, 0x3f,
  0x65, 0x25, 0x41, 0x3f, 0xda, 0xdc, 0x5d, 0xbe, 0xc0, 0x92, 0x15, 0x3f,
  0xd8, 0x0f, 0x20, 0xbf, 0xe5, 0x83, 0x9a, 0xbf, 0x8c, 0x47, 0xde, 0x3d,
  0x79, 0xc1, 0x45, 0x3f, 0x42, 0xab, 0x3a, 0x3f, 0x0c, 0xd0, 0x34, 0xbf,
  0x37, 0xd3, 0x20, 0xbf, 0xa3, 0x4c, 0x9a, 0xbf, 0x72, 0xef, 0x5b, 0xbf,
  0x5a, 0x12, 0x21, 0x3f, 0xc2, 0x51, 0xd5, 0xbe, 0xc2, 0x72, 0x84, 0x3f,
  0x59, 0x65, 0x2f, 0x3e, 0xd9, 0x1d, 0x2e, 0xbf, 0x92, 0xaa, 0x1d, 0xbf,
  0xdb, 0xab, 0xea, 0x3e, 0x0d, 0x9d, 0xd7, 0xb9, 0x95, 0x47, 0x26, 0x3f,
  0x22, 0x79, 0xe2, 0x3e, 0xf8, 0x2f, 0x9b, 0xbf, 0x3e, 0x7b, 0x17, 0xbf,
  0x88, 0x5c, 0x91, 0x3d, 0x08, 0x9a, 0x14, 0x3f, 0x9b, 0xc2, 0x0f, 0x3f,
  0x48, 0x9e, 0x45, 0xbe, 0x7e, 0xe9, 0x20, 0x3f, 0xfb, 0x7e, 0x8e, 0xbd,
  0x59, 0x92, 0x13, 0x3f, 0xd1, 0xfd, 0x3a, 0xbf, 0xd3, 0xca, 0x81, 0xbd,
  0x80, 0xba, 0x53, 0x3f, 0x00, 0xe3, 0xcb, 0x3e, 0x85, 0xe9, 0x47, 0xbe,
  0xc7, 0xdf, 0x5c, 0x3e, 0xaa, 0x65, 0x11, 0x3f, 0x72, 0xe0, 0x4f, 0xbf,
  0xbe, 0xab, 0x69, 0xbf, 0xe6, 0x0c, 0xdc, 0x3e, 0xf4, 0x3b, 0x81, 0x3f,
  0x8c, 0xaa, 0x72, 0x3f, 0x9c, 0x6a, 0xec, 0x3e, 0xc6, 0xc7, 0x0c, 0x3f,
  0x4c, 0xb0, 0xa0, 0x3d, 0x01, 0xf2, 0xce, 0x3e, 0xd1, 0x5a, 0x33, 0xbf,
  0x6e, 0x99, 0x64, 0xbe, 0x14, 0xae, 0x72, 0x3f, 0x98, 0x21, 0xed, 0x3e,
  0x12, 0xc1, 0xf0, 0x3d, 0x08, 0xc3, 0xda, 0x3e, 0x93, 0xe4, 0xc6, 0x3e,
  0x33, 0xbc, 0x89, 0xbe, 0x32, 0x3d, 0x6c, 0xbf, 0x6b, 0xfa, 0x35, 0xbd,
  0xcc, 0x68, 0x81, 0xbe, 0x9e, 0x85, 0xef, 0xbb, 0x28, 0xfe, 0xde, 0x3d,
  0x3c, 0xc8, 0xa8, 0x3e, 0xad, 0x76, 0x14, 0xbf, 0x0b, 0x2e, 0x45, 0x3f,
  0xb4, 0x29, 0x8d, 0xbe, 0xf9, 0xd1, 0x2b, 0xbe, 0xd6, 0x2b, 0xdb, 0x3e,
  0xfe, 0xfe, 0xff, 0xff, 0x04, 0x00, 0x00, 0x00, 0x60, 0x00, 0x00, 0x00,
  0xcc, 0xf1, 0x56, 0x3f, 0x4d, 0x51, 0x85, 0xbe, 0x7f, 0xc3, 0x6e, 0xbf,
  0xff, 0xd1, 0x25, 0xbf, 0x45, 0xaa, 0xbc, 0xbf, 0xec, 0x2d, 0x4c, 0x3f,
  0x28, 0x2d, 0x33, 0x3d, 0xb6, 0xb9, 0x3b, 0x3f, 0x2b, 0xb3, 0xb1, 0xbf,
  0xa6, 0x5d, 0x0d, 0x3f, 0x12, 0x8f, 0x61, 0x3f, 0xcc, 0x75, 0x9f, 0x3f,
  0x8b, 0xe6, 0x9c, 0xbf, 0x65, 0xa7, 0x81, 0xbf, 0x72, 0xea, 0x4c, 0xbf,
  0xce, 0xc9, 0x87, 0xbf, 0x10, 0x8d, 0x56, 0x3f, 0xe7, 0x15, 0xa8, 0xbf,
  0x3a, 0xec, 0x8c, 0xbf, 0x31, 0x2e, 0x36, 0xbe, 0xff, 0x71, 0xfe, 0x3e,
  0x47, 0x16, 0xcb, 0xbf, 0xb7, 0xb6, 0xc5, 0xbf, 0xef, 0xcf, 0xb1, 0xbe,
  0x68, 0xfa, 0xff, 0xff, 0x6c, 0xfa, 0xff, 0xff, 0x0f, 0x00, 0x00, 0x00,
  0x4d, 0x4c, 0x49, 0x52, 0x20, 0x43, 0x6f, 0x6e, 0x76, 0x65, 0x72, 0x74,
  0x65, 0x64, 0x2e, 0x00, 0x01, 0x00, 0x00, 0x00, 0x14, 0x00, 0x00, 0x00,
  0x00, 0x00, 0x0e, 0x00, 0x18, 0x00, 0x14, 0x00, 0x10, 0x00, 0x0c, 0x00,
  0x08, 0x00, 0x04, 0x00, 0x0e, 0x00, 0x00, 0x00, 0x14, 0x00, 0x00, 0x00,
  0x1c, 0x00, 0x00, 0x00, 0x24, 0x01, 0x00, 0x00, 0x28, 0x01, 0x00, 0x00,
  0x2c, 0x01, 0x00, 0x00, 0x04, 0x00, 0x00, 0x00, 0x6d, 0x61, 0x69, 0x6e,
  0x00, 0x00, 0x00, 0x00, 0x04, 0x00, 0x00, 0x00, 0xcc, 0x00, 0x00, 0x00,
  0x84, 0x00, 0x00, 0x00, 0x50, 0x00, 0x00, 0x00, 0x14, 0x00, 0x00, 0x00,
  0x00, 0x00, 0x0e, 0x00, 0x1a, 0x00, 0x14, 0x00, 0x10, 0x00, 0x0c, 0x00,
  0x0b, 0x00, 0x04, 0x00, 0x0e, 0x00, 0x00, 0x00, 0x1c, 0x00, 0x00, 0x00,
  0x00, 0x00, 0x00, 0x09, 0x1c, 0x00, 0x00, 0x00, 0x20, 0x00, 0x00, 0x00,
  0x01, 0x00, 0x00, 0x00, 0x00, 0x00, 0x06, 0x00, 0x08, 0x00, 0x04, 0x00,
  0x06, 0x00, 0x00, 0x00, 0x00, 0x00, 0x80, 0x3f, 0x01, 0x00, 0x00, 0x00,
  0x0a, 0x00, 0x00, 0x00, 0x01, 0x00, 0x00, 0x00, 0x09, 0x00, 0x00, 0x00,
  0x9a, 0xff, 0xff, 0xff, 0x10, 0x00, 0x00, 0x00, 0x00, 0x00, 0x00, 0x08,
  0x0c, 0x00, 0x00, 0x00, 0x10, 0x00, 0x00, 0x00, 0x30, 0xfb, 0xff, 0xff,
  0x01, 0x00, 0x00, 0x00, 0x09, 0x00, 0x00, 0x00, 0x03, 0x00, 0x00, 0x00,
  0x08, 0x00, 0x00, 0x00, 0x01, 0x00, 0x00, 0x00, 0x03, 0x00, 0x00, 0x00,
  0xca, 0xff, 0xff, 0xff, 0x10, 0x00, 0x00, 0x00, 0x00, 0x00, 0x00, 0x08,
  0x10, 0x00, 0x00, 0x00, 0x14, 0x00, 0x00, 0x00, 0xba, 0xff, 0xff, 0xff,
  0x00, 0x00, 0x00, 0x01, 0x01, 0x00, 0x00, 0x00, 0x08, 0x00, 0x00, 0x00,
  0x03, 0x00, 0x00, 0x00, 0x07, 0x00, 0x00, 0x00, 0x02, 0x00, 0x00, 0x00,
  0x04, 0x00, 0x00, 0x00, 0x00, 0x00, 0x0e, 0x00, 0x16, 0x00, 0x00, 0x00,
  0x10, 0x00, 0x0c, 0x00, 0x0b, 0x00, 0x04, 0x00, 0x0e, 0x00, 0x00, 0x00,
  0x18, 0x00, 0x00, 0x00, 0x00, 0x00, 0x00, 0x08, 0x18, 0x00, 0x00, 0x00,
  0x1c, 0x00, 0x00, 0x00, 0x00, 0x00, 0x06, 0x00, 0x08, 0x00, 0x07, 0x00,
  0x06, 0x00, 0x00, 0x00, 0x00, 0x00, 0x00, 0x01, 0x01, 0x00, 0x00, 0x00,
  0x07, 0x00, 0x00, 0x00, 0x03, 0x00, 0x00, 0x00, 0x00, 0x00, 0x00, 0x00,
  0x06, 0x00, 0x00, 0x00, 0x05, 0x00, 0x00, 0x00, 0x01, 0x00, 0x00, 0x00,
  0x0a, 0x00, 0x00, 0x00, 0x01, 0x00, 0x00, 0x00, 0x00, 0x00, 0x00, 0x00,
  0x0b, 0x00, 0x00, 0x00, 0xf8, 0x03, 0x00, 0x00, 0xa0, 0x03, 0x00, 0x00,
  0x48, 0x03, 0x00, 0x00, 0x0c, 0x03, 0x00, 0x00, 0xd0, 0x02, 0x00, 0x00,
  0x74, 0x02, 0x00, 0x00, 0x24, 0x02, 0x00, 0x00, 0x84, 0x01, 0x00, 0x00,
  0xe4, 0x00, 0x00, 0x00, 0x60, 0x00, 0x00, 0x00, 0x04, 0x00, 0x00, 0x00,
  0x4a, 0xfc, 0xff, 0xff, 0x00, 0x00, 0x00, 0x01, 0x14, 0x00, 0x00, 0x00,
  0x1c, 0x00, 0x00, 0x00, 0x1c, 0x00, 0x00, 0x00, 0x0b, 0x00, 0x00, 0x00,
  0x34, 0x00, 0x00, 0x00, 0x02, 0x00, 0x00, 0x00, 0xff, 0xff, 0xff, 0xff,
  0x03, 0x00, 0x00, 0x00, 0x34, 0xfc, 0xff, 0xff, 0x1b, 0x00, 0x00, 0x00,
  0x53, 0x74, 0x61, 0x74, 0x65, 0x66, 0x75, 0x6c, 0x50, 0x61, 0x72, 0x74,
  0x69, 0x74, 0x69, 0x6f, 0x6e, 0x65, 0x64, 0x43, 0x61, 0x6c, 0x6c, 0x5f,
  0x31, 0x3a, 0x30, 0x00, 0x02, 0x00, 0x00, 0x00, 0x01, 0x00, 0x00, 0x00,
  0x03, 0x00, 0x00, 0x00, 0xa2, 0xfc, 0xff, 0xff, 0x00, 0x00, 0x00, 0x01,
  0x14, 0x00, 0x00, 0x00, 0x1c, 0x00, 0x00, 0x00, 0x1c, 0x00, 0x00, 0x00,
  0x0a, 0x00, 0x00, 0x00, 0x5c, 0x00, 0x00, 0x00, 0x02, 0x00, 0x00, 0x00,
  0xff, 0xff, 0xff, 0xff, 0x03, 0x00, 0x00, 0x00, 0x8c, 0xfc, 0xff, 0xff,
  0x40, 0x00, 0x00, 0x00, 0x73, 0x65, 0x71, 0x75, 0x65, 0x6e, 0x74, 0x69,
  0x61, 0x6c, 0x5f, 0x32, 0x5f, 0x31, 0x2f, 0x64, 0x65, 0x6e, 0x73, 0x65,
  0x5f, 0x36, 0x5f, 0x31, 0x2f, 0x4d, 0x61, 0x74, 0x4d, 0x75, 0x6c, 0x3b,
  0x73, 0x65, 0x71, 0x75, 0x65, 0x6e, 0x74, 0x69, 0x61, 0x6c, 0x5f, 0x32,
  0x5f, 0x31, 0x2f, 0x64, 0x65, 0x6e, 0x73, 0x65, 0x5f, 0x36, 0x5f, 0x31,
  0x2f, 0x42, 0x69, 0x61, 0x73, 0x41, 0x64, 0x64, 0x00, 0x00, 0x00, 0x00,
  0x02, 0x00, 0x00, 0x00, 0x01, 0x00, 0x00, 0x00, 0x03, 0x00, 0x00, 0x00,
  0x22, 0xfd, 0xff, 0xff, 0x00, 0x00, 0x00, 0x01, 0x14, 0x00, 0x00, 0x00,
  0x1c, 0x00, 0x00, 0x00, 0x1c, 0x00, 0x00, 0x00, 0x09, 0x00, 0x00, 0x00,
  0x78, 0x00, 0x00, 0x00, 0x02, 0x00, 0x00, 0x00, 0xff, 0xff, 0xff, 0xff,
  0x08, 0x00, 0x00, 0x00, 0x0c, 0xfd, 0xff, 0xff, 0x5e, 0x00, 0x00, 0x00,
  0x73, 0x65, 0x71, 0x75, 0x65, 0x6e, 0x74, 0x69, 0x61, 0x6c, 0x5f, 0x32,
  0x5f, 0x31, 0x2f, 0x64, 0x65, 0x6e, 0x73, 0x65, 0x5f, 0x35, 0x5f, 0x31,
  0x2f, 0x4d, 0x61, 0x74, 0x4d, 0x75, 0x6c, 0x3b, 0x73, 0x65, 0x71, 0x75,
  0x65, 0x6e, 0x74, 0x69, 0x61, 0x6c, 0x5f, 0x32, 0x5f, 0x31, 0x2f, 0x64,
  0x65, 0x6e, 0x73, 0x65, 0x5f, 0x35, 0x5f, 0x31, 0x2f, 0x52, 0x65, 0x6c,
  0x75, 0x3b, 0x73, 0x65, 0x71, 0x75, 0x65, 0x6e, 0x74, 0x69, 0x61, 0x6c,
  0x5f, 0x32, 0x5f, 0x31, 0x2f, 0x64, 0x65, 0x6e, 0x73, 0x65, 0x5f, 0x35,
  0x5f, 0x31, 0x2f, 0x42, 0x69, 0x61, 0x73, 0x41, 0x64, 0x64, 0x00, 0x00,
  0x02, 0x00, 0x00, 0x00, 0x01, 0x00, 0x00, 0x00, 0x08, 0x00, 0x00, 0x00,
  0xbe, 0xfd, 0xff, 0xff, 0x00, 0x00, 0x00, 0x01, 0x14, 0x00, 0x00, 0x00,
  0x1c, 0x00, 0x00, 0x00, 0x1c, 0x00, 0x00, 0x00, 0x08, 0x00, 0x00, 0x00,
  0x78, 0x00, 0x00, 0x00, 0x02, 0x00, 0x00, 0x00, 0xff, 0xff, 0xff, 0xff,
  0x10, 0x00, 0x00, 0x00, 0xa8, 0xfd, 0xff, 0xff, 0x5e, 0x00, 0x00, 0x00,
  0x73, 0x65, 0x71, 0x75, 0x65, 0x6e, 0x74, 0x69, 0x61, 0x6c, 0x5f, 0x32,
  0x5f, 0x31, 0x2f, 0x64, 0x65, 0x6e, 0x73, 0x65, 0x5f, 0x34, 0x5f, 0x31,
  0x2f, 0x4d, 0x61, 0x74, 0x4d, 0x75, 0x6c, 0x3b, 0x73, 0x65, 0x71, 0x75,
  0x65, 0x6e, 0x74, 0x69, 0x61, 0x6c, 0x5f, 0x32, 0x5f, 0x31, 0x2f, 0x64,
  0x65, 0x6e, 0x73, 0x65, 0x5f, 0x34, 0x5f, 0x31, 0x2f, 0x52, 0x65, 0x6c,
  0x75, 0x3b, 0x73, 0x65, 0x71, 0x75, 0x65, 0x6e, 0x74, 0x69, 0x61, 0x6c,
  0x5f, 0x32, 0x5f, 0x31, 0x2f, 0x64, 0x65, 0x6e, 0x73, 0x65, 0x5f, 0x34,
  0x5f, 0x31, 0x2f, 0x42, 0x69, 0x61, 0x73, 0x41, 0x64, 0x64, 0x00, 0x00,
  0x02, 0x00, 0x00, 0x00, 0x01, 0x00, 0x00, 0x00, 0x10, 0x00, 0x00, 0x00,
  0xae, 0xfe, 0xff, 0xff, 0x00, 0x00, 0x00, 0x01, 0x10, 0x00, 0x00, 0x00,
  0x10, 0x00, 0x00, 0x00, 0x07, 0x00, 0x00, 0x00, 0x2c, 0x00, 0x00, 0x00,
  0x34, 0xfe, 0xff, 0xff, 0x1f, 0x00, 0x00, 0x00, 0x73, 0x65, 0x71, 0x75,
  0x65, 0x6e, 0x74, 0x69, 0x61, 0x6c, 0x5f, 0x32, 0x5f, 0x31, 0x2f, 0x64,
  0x65, 0x6e, 0x73, 0x65, 0x5f, 0x34, 0x5f, 0x31, 0x2f, 0x4d, 0x61, 0x74,
  0x4d, 0x75, 0x6c, 0x00, 0x02, 0x00, 0x00, 0x00, 0x10, 0x00, 0x00, 0x00,
  0x07, 0x00, 0x00, 0x00, 0xfa, 0xfe, 0xff, 0xff, 0x00, 0x00, 0x00, 0x01,
  0x10, 0x00, 0x00, 0x00, 0x10, 0x00, 0x00, 0x00, 0x06, 0x00, 0x00, 0x00,
  0x3c, 0x00, 0x00, 0x00, 0x80, 0xfe, 0xff, 0xff, 0x2f, 0x00, 0x00, 0x00,
  0x73, 0x65, 0x71, 0x75, 0x65, 0x6e, 0x74, 0x69, 0x61, 0x6c, 0x5f, 0x32,
  0x5f, 0x31, 0x2f, 0x64, 0x65, 0x6e, 0x73, 0x65, 0x5f, 0x34, 0x5f, 0x31,
  0x2f, 0x42, 0x69, 0x61, 0x73, 0x41, 0x64, 0x64, 0x2f, 0x52, 0x65, 0x61,
  0x64, 0x56, 0x61, 0x72, 0x69, 0x61, 0x62, 0x6c, 0x65, 0x4f, 0x70, 0x00,
  0x01, 0x00, 0x00, 0x00, 0x10, 0x00, 0x00, 0x00, 0x52, 0xff, 0xff, 0xff,
  0x00, 0x00, 0x00, 0x01, 0x10, 0x00, 0x00, 0x00, 0x10, 0x00, 0x00, 0x00,
  0x05, 0x00, 0x00, 0x00, 0x1c, 0x00, 0x00, 0x00, 0xd8, 0xfe, 0xff, 0xff,
  0x0f, 0x00, 0x00, 0x00, 0x61, 0x72, 0x69, 0x74, 0x68, 0x2e, 0x63, 0x6f,
  0x6e, 0x73, 0x74, 0x61, 0x6e, 0x74, 0x33, 0x00, 0x01, 0x00, 0x00, 0x00,
  0x08, 0x00, 0x00, 0x00, 0x8a, 0xff, 0xff, 0xff, 0x00, 0x00, 0x00, 0x01,
  0x10, 0x00, 0x00, 0x00, 0x10, 0x00, 0x00, 0x00, 0x04, 0x00, 0x00, 0x00,
  0x1c, 0x00, 0x00, 0x00, 0x10, 0xff, 0xff, 0xff, 0x0f, 0x00, 0x00, 0x00,
  0x61, 0x72, 0x69, 0x74, 0x68, 0x2e, 0x63, 0x6f, 0x6e, 0x73, 0x74, 0x61,
  0x6e, 0x74, 0x32, 0x00, 0x01, 0x00, 0x00, 0x00, 0x03, 0x00, 0x00, 0x00,
  0xc2, 0xff, 0xff, 0xff, 0x00, 0x00, 0x00, 0x01, 0x10, 0x00, 0x00, 0x00,
  0x10, 0x00, 0x00, 0x00, 0x03, 0x00, 0x00, 0x00, 0x1c, 0x00, 0x00, 0x00,
  0x48, 0xff, 0xff, 0xff, 0x0f, 0x00, 0x00, 0x00, 0x61, 0x72, 0x69, 0x74,
  0x68, 0x2e, 0x63, 0x6f, 0x6e, 0x73, 0x74, 0x61, 0x6e, 0x74, 0x31, 0x00,
  0x02, 0x00, 0x00, 0x00, 0x08, 0x00, 0x00, 0x00, 0x10, 0x00, 0x00, 0x00,
  0x00, 0x00, 0x16, 0x00, 0x18, 0x00, 0x14, 0x00, 0x00, 0x00, 0x10, 0x00,
  0x0c, 0x00, 0x08, 0x00, 0x00, 0x00, 0x00, 0x00, 0x00, 0x00, 0x07, 0x00,
  0x16, 0x00, 0x00, 0x00, 0x00, 0x00, 0x00, 0x01, 0x10, 0x00, 0x00, 0x00,
  0x10, 0x00, 0x00, 0x00, 0x02, 0x00, 0x00, 0x00, 0x1c, 0x00, 0x00, 0x00,
  0x9c, 0xff, 0xff, 0xff, 0x0e, 0x00, 0x00, 0x00, 0x61, 0x72, 0x69, 0x74,
  0x68, 0x2e, 0x63, 0x6f, 0x6e, 0x73, 0x74, 0x61, 0x6e, 0x74, 0x00, 0x00,
  0x02, 0x00, 0x00, 0x00, 0x03, 0x00, 0x00, 0x00, 0x08, 0x00, 0x00, 0x00,
  0x00, 0x00, 0x16, 0x00, 0x1c, 0x00, 0x18, 0x00, 0x00, 0x00, 0x14, 0x00,
  0x10, 0x00, 0x0c, 0x00, 0x00, 0x00, 0x00, 0x00, 0x08, 0x00, 0x07, 0x00,
  0x16, 0x00, 0x00, 0x00, 0x00, 0x00, 0x00, 0x01, 0x14, 0x00, 0x00, 0x00,
  0x20, 0x00, 0x00, 0x00, 0x20, 0x00, 0x00, 0x00, 0x01, 0x00, 0x00, 0x00,
  0x40, 0x00, 0x00, 0x00, 0x02, 0x00, 0x00, 0x00, 0xff, 0xff, 0xff, 0xff,
  0x07, 0x00, 0x00, 0x00, 0x04, 0x00, 0x04, 0x00, 0x04, 0x00, 0x00, 0x00,
  0x20, 0x00, 0x00, 0x00, 0x73, 0x65, 0x72, 0x76, 0x69, 0x6e, 0x67, 0x5f,
  0x64, 0x65, 0x66, 0x61, 0x75, 0x6c, 0x74, 0x5f, 0x6b, 0x65, 0x72, 0x61,
  0x73, 0x5f, 0x74, 0x65, 0x6e, 0x73, 0x6f, 0x72, 0x5f, 0x37, 0x3a, 0x30,
  0x00, 0x00, 0x00, 0x00, 0x02, 0x00, 0x00, 0x00, 0x01, 0x00, 0x00, 0x00,
  0x07, 0x00, 0x00, 0x00, 0x02, 0x00, 0x00, 0x00, 0x20, 0x00, 0x00, 0x00,
  0x04, 0x00, 0x00, 0x00, 0xf4, 0xff, 0xff, 0xff, 0x19, 0x00, 0x00, 0x00,
  0x00, 0x00, 0x00, 0x19, 0x0c, 0x00, 0x0c, 0x00, 0x0b, 0x00, 0x00, 0x00,
  0x00, 0x00, 0x04, 0x00, 0x0c, 0x00, 0x00, 0x00, 0x09, 0x00, 0x00, 0x00,
  0x00, 0x00, 0x00, 0x09
};
unsigned int copd_models_copd_model_tflite_len = 3268;
